07F20FFC339B04FA
345341012DE42ADF
FE3845280D2F2F25
252FE715EAFF3309
2B2A4E4033113E0C
E32BDF09E5EF36F3
EFE3F3E42CF0CFDE
E02DF6E0CFC8CD14
000000000000004D
0814F3BA10EF2D27
FE06C80311DDE2F1
0EA9DFE211E8E513
FFC519F3EBE4CE04
BB0BCFCDD2E8FC06
F3FB1C011F32FDEA
F1F215163E27F5E5
2CFB1609F95918E8
00000000000000DD
FAC2DBFD25E80403
0A160CF61DB51AE5
2E0C0AFB4EFA3B14
6B272405E2155237
DF39CD13F2422F3C
CD001CBF04D15BFB
4E0ADBECDB4257B9
C5FD0105F84112B8
000000000000001A
47D2CD130BE3FBF7
2CFCD6CF0D2817DE
E9D8FD10D0F4FCCF
1A1DC1F9F0BFB6E8
D2EBE8EC0F3CD223
E6E31412E5E61138
1313F9F7E21625C9
A01412510D1A1C2B
0000000000000016
DAECD5F3BF0812ED
D3223908FFE64511
30E78DD70E022838
23C8FC180FDCC9FA
2AF3E4CBF928ADFA
3182CBDE15C6D539
A8190609D8D71DC0
E2C8F7391815DA0C
00000000000000F5
0CF23DC9F7FA2321
E5C11007CFBC1AF4
95010ED20DDBDCB2
D8A5F214F19581A3
441EC4E022E7D7EC
12F6D9D215C701FA
F0480D81AAF6E286
D7D24CD1F53C0381
000000000000001C
0F32F9CCF6FC1930
CAD2E025D4E5CD15
F9ECE5E608E701D6
EC28D0CFCDD9D805
2CF0FBD31BE6FBBA
2EF418094115FB0D
DFEEE1202B2601EB
E8F1273F0F152123
00000000000000D8
EC21FE10EBD20BF5
D0ECE9E71930DEE0
C1D9E2E2CFE10C11
DAE5D2BDDBDFDCBE
27B704E7B7C42FFB
15B010F6C04001CA
F3F6BA37ED2FE9F0
0505EA2323126026
0000000000000032
0B09DFF6F3F4FDDD
611F22E1E50B20EB
6E36F94A1C312902
7C61FF49F9151F45
232AFD27531AE608
D4150308EFD705CC
1315DD09C7293CEC
D153EE2AD5C13C10
0000000000000010
062153C3E4B8DAC5
23DD1CC1CEFA81C5
15D7343BDE1D19D7
D1F1AEFF21D94035
2BB8F3FA0B24FFF8
4E3EE31047E8C402
AD2B2DCEF724F1FC
18E6181B2BC5BE38
00000000000000B7
35F6AF280B1DC025
2A5F2F4E302B1029
0004D155E827C203
61B029232E3CF3F9
A7311F2151E249FA
F53AB3D8D7D8100F
210B103EC4EBCC13
E05101E716AA0CE4
000000000000001A
07B8C913F7C9FAEB
231230E4D3FF40E4
051603011329AAF5
07C52A4F1042470D
FF5EBA01FA45001A
15E5D534FFC8F10B
4905080A49AAFC59
CA02E200DABDB900
000000000000003D
E5260FF808FD08E5
01BABB1FF7B7FCF5
BACFD3F9DADAE2E1
06E7CEB9D8EE04C9
CC0CFBE2F2C100F8
E14A0608E92F3BEA
ACE4B407420616A9
ECFB3A011936532E
0000000000000021
AE173FF7E4DF0906
02110F0732443B31
3A08100D13FB5B26
C87B31F5DA432202
B5FF0B27110F4A42
F5D7D1C7C00803A9
29BAD922B1E14CE7
CC0EF447EB48C430
00000000000000DF
140C06FB262B082B
2A35234E193E2A00
1133EF4619FE3E1E
070127195638FFFA
D22220E05144460C
FA1B25D9FBE0D8E4
05E4EAEEE5F019FF
EBE6081BDCDADFD7
000000000000003C
CBF38FE1103307FC
08EAA20E34EF7458
5D2ED9F60522E83C
C847271D0FD2F31D
8D24FC0CE1F4A0F9
26E017323224DFD4
16092CD7F425076D
9202BBD1A4D8A90B
000000000000002B
EDE7070710CA0DFB
D5CCE83EF3D6D903
C0B9F9CCAC1E11D9
BED7CBC71DD585C8
F0F3C2F5C6EA0AF5
F41BD23BF9FBFA0C
871DFB0B963D09D8
04BAFCFCEA1CF713
00000000000000DC
EDF8FF1A321ABEEC
D7EC7FE1E4D8DA9F
03E10A604317332B
4CBB35EE34193A6C
2B150C06030821F4
DB04232D53E0B8CA
0CDF2AC02C6ADE0B
E1C3B23551B2E3F1
000000000000000F
DDE1E4CC0DFADED7
BF2E4D2240D50923
B612D13812C7F12D
001723ABF3E0A134
520223A8E8E79DB6
413AFDE72D150D33
DCB23631C624BFB6
0103F9F8F3E7322C
0000000000000028
FFF6371E56DCE0E8
1E500702F6C8F3AD
DFE9AEEFF014153E
F4F40353E61E1D32
E3F8F24407ECD5DA
F62EFECBD8384544
DD3EB7CA2D43D40F
E0323BB8F10ADD37
0000000000000037
A8A0C5CECDE1F502
2A16D4B9C6BE159D
0014E4E7C2EE2D0F
0B23DC08E300E7D6
17C4E0E2EFFBF5C1
0F06130937E21E28
F30CFF1FFC150318
D3281CF013E71920
00000000000000E1
FA24E52C6F3505E5
EBFBF0FD515A133A
F605FBFCEDF30BEF
F2000BF2F1F4F6F8
FA6DF438F00EFDF2
04FCF4F027F4E4F0
26E806F4F0F1F01D
EA04F5ED25E3DB07
0000000000000017
5EE13E2559B9FFEC
131CE902FEEB4706
241BE4423AFDEC1A
20052F044106FC0E
CD55084747F515EB
02F908E30AE2EF04
0FFA1403FDFA2DD4
F81CF8E3F3EADBED
0000000000000041
BCF9F5060416F7CD
C3AA011FD3A16719
3DD937FFDF475209
17E0F8CD1A49EBC3
F8E534D6F4EA36F9
3BB6C52F38C7E8B5
BDD639BD21A3FC1A
EDFCBFF50B1CED06
0000000000000038
1BE40E18D021E0B8
D1863320F802C222
12DE57EB07A8DFE7
C6C5079EE09BAFFE
13DD02BDC9BD38D7
321351DE47321CEF
D0C8D11A1726EEF3
3807ED2C4717C932
0000000000000015
B731D7DEF9C6FF40
B3483825352E381A
3521E150F934C837
B03427D7EB040A04
052D30CD34F50920
0B26E80FF6CCDC18
27E3DE140FC0DD1B
D5D3EE15BD028857
00000000000000D5
15F93D23F618F818
2A27C636DDD2F8F2
584D0301F8AFB309
BDF94F23F9E3E318
3DD30F3619EBDFE8
F5F2CDF4DC2E332B
610003D3FD261428
2A081B28EE02D505
0000000000000088
E128F930F049F1DF
675B31EAFD0A0C2A
1E2ACE3436361914
4D050E2BFE000223
FD313D0D22382F0B
A5EC2CDAFCDBF4D6
E7FAFCCEEFED0FFD
DA1E0AF6E6021DF1
00000000000000D2
1BEAC542670FF0DC
3432EDECFF2205D7
1F1D425F41D00F0D
082248190AE8343A
EE3410202FF754EC
1D1F27D2F200E9DD
17E207C3DD1CFFE6
6EE8F7C525EBE30E
000000000000002E
ECD5D8111ED3EC03
3B32451EAECE03DD
2B31313A2732FD13
2E0F283B1A38161F
F10D281323070712
6721FDF5E4C10BD7
A81A3DE6AB02F7E2
4B00DFEBC4E7D2CC
0000000000000010
EC1400F5FDE7014A
13A8532C031FED24
FCB24C1DE2E79BE5
DFA9DB0EE208081A
37F1B1D1A7D8E3BD
23299BC111E204E4
D514251C01EBDCAB
87C6BFA4FDACFBB9
00000000000000AF
D232D2E1E20A0E0E
C5ABEA11F2FAF019
EADA21E710FECFF4
AFA5E8A30BE6D6EB
FC11CADACDCF0CEE
0B0900035423FE10
D1F8212630F30AD2
BEE40DF5EAFAE018
00000000000000B2
33C9EF471C00D720
34342AC9FACE0DF2
0617211B0B03EE22
26F405301F0E361F
F6F61B0C2A044218
DDE23F09CA293A4A
06F4BDFC48EDDF24
E813FBC909EB40F3
0000000000000024
A9C429B7FABBDA55
0C0CFE05BAE8DCE0
F5EC27FE17E032F3
F51BCE2C07BA1A1F
09D8F9B3FA0913E3
34E8E70233072810
A20607F61D3AE8ED
F9F21F1026EE1E2E
00000000000000E5
BDFAF5EE0614E1D2
17135225CFD423D1
16F1D6FD22EE3240
204206CA273AB52E
43F203100D325204
481ED1C029E7BAF0
25F92110E4292FDB
E91B31D31F0BB715
0000000000000000
0F2836EEFA3001C2
CFF0F7D6F5BED4E4
A4DDD1D3A2D6CFFA
E5C8D9F0CECDEBAC
31E7FF14F6D6E8D0
36DCD115021CD700
17FEE72E1E100DE1
35093A19C7DC4B24
00000000000000F7
F009059BD51C7F04
EF5846E2D8DACEA9
EAE5294ACBEF2FE1
B411B9D6FF1F4909
D1E8CEF72C21D707
2808EBCEC1EF2727
F5DAE106EA1019E6
D5AF22FFFBD5F31A
00000000000000E6
E0DF0B36F2B3E1D8
132B2DDEF6DFD5D6
091E1F3719EFF71A
22381C1D17532109
F5FE0E3A36282A11
2B38E1A5F904FEDB
48DF1FD1BDAA4804
28F3FC030DF1C2E6
00000000000000E1
FDF3F7112D13CDE2
0650215D20370503
D926A3E52B0D4A1C
2406320719D2152D
16F15120491A0E48
40AA2CE3EAE7BBDB
E8E4DEC3D401DE1F
650AFBE0EA19B7F2
00000000000000E1
0BCEBAEEFAE5F7F7
2E182BCCE10B42EE
2CFE3CE824304615
2ED9F30917B3DDF1
2F1602C4380CF43E
4EBDF80541DE2119
01200705DCFF18CF
0B0FD5EC193AD811
0000000000000029
2BF9CE7B5C4AFEE6
DAECDB261BE52027
100302F9E1F4E90F
F1D009C2ECD2DD05
073C0132E6F9DDED
F932DE22D018C40B
E1FDDA12F722F83D
DD0C1E3EE0F9BF16
000000000000001A
1F1A412A2F45FE0C
D0DDF01E1F600636
F12C4B340EC6DBEB
D6E642F319EC2B3A
F50DFE1FE92119E6
25082906CDEFBAD8
49F03FDE443DDC46
2207FD0BD3D1E4E3
000000000000000D
F012F3FDF3F00CDC
D2E79CE2EEE0E1FE
F706C9E7B5F3BEDB
BDADC7E919C9ABA6
2EF8FC23FF20DAC8
1B27FF1EEE2E2FE5
EB173A0B27C0DF06
EFC2280F150BFC14
00000000000000FC
FBCCD7062CE80D26
E13CE7080C20E41F
262F234AEA0A1D08
470D2331AB2E0123
C13163FA3709D63A
E254C8E1ECCA99EE
EF00FAFAD9E2AFFF
22E30C0FDBF32BC0
00000000000000E4
26F80E0B14E2351F
2DD410FDFAF52317
34F836D6ECE6622E
BB1D082F1FFACB02
65A9D0250622FF0A
3E9ABBB4E904ECA7
1D14CA3C88D8F119
96D21FAA2CEB99DF
00000000000000E0
4034CAD6D4293005
F2F4E7532F66E829
C9D5EBDBED0F0504
E3F1F013D0F6E5C7
23F8D7F8E71DC009
4730342EFA3CD731
0B3BC715E5B63AFD
BEC423AC293D43FB
00000000000000CD
EF2D3DE3D8FD12DB
F8EDEF13304FD523
C7D3D6FAE2D50FEC
D7C7C6F7E9E8DEE5
0D06E7F2D9F6E1E9
09A91331322F0DED
CA26D51FB8ECC6D8
CDE5D62BBDE4341F
00000000000000D0
D534042839CD0F2E
0F78152D31F0594D
103A0DE608203643
0B55100A594E2232
E61E160DFF362F04
FCE4EFDCD3E3EA11
C5F5E8E9FAE9D9F6
DAEDC6F017DCD8EB
0000000000000009
03FDF3243CB5F817
CD710CC803D5EEF8
DBF9E3EBC5EA270E
1AF1E8B212B02EAE
0DF6C925D4EA0504
D8E7002098DEFD55
F6F00C321D0E1DF5
E510FAF9371A2839
0000000000000002
24DFAAEB1D0BF60D
D4F6FD15F0A532E4
1734EEF85A6C101E
FE1F484FCFCF171F
F93A193B0D0FD31B
28285259262CDB05
723EA5EB21D0414D
F7F8F00E03FCD4DE
00000000000000F8
0C0857BDC2081B08
F9F41AEF07D7DA12
00DAFCF8F51921F1
1818EADFFD260622
42CBFEC4F327E01D
1822D9E253A8FBCB
C2CEFC36D33434CA
0CC0ED5C101E1807
00000000000000ED
00D3451222C5EE0E
2A4ADBEED3B32DF0
01FBF1483645FB4E
2FF21A59C6F83200
112DE92304C13023
1EF6B21D0D11AD19
3B7F2302CBD9EA21
032EEBDF1BF21CD6
0000000000000011
F71214154321F1C3
2019EF400308122C
AD2C0AD80B392F3C
D7A50635D5D42520
10044FF21CF2F410
07B4022CF6521729
0B33A4C91E3E3266
40D12BD6D82699C0
0000000000000046
7F3A19311931FA57
1A121041326D1E08
101019CCC619FBFE
1EDCF41037455206
C7E1F509EE295547
D7C3340FBEEC47F3
020DFA14F8192AE3
D804EBF0FC1C5FBF
000000000000002B
12D7070C02D3E6E5
F2E725CEC5C40CD1
C24CE101D7E6FA36
EB2CF223CE7FE9F4
2719C53DF127E31E
090DFAFDF5F536D7
2E4BD713FEB3D513
AB422846A428D0F3
0000000000000067
CCF3FBFFDDFF0FF7
F3814927D5EACD0B
9C0DBFD7200B1392
CCA0E5CB23251102
01DE38BDE2A0F6C1
ECEC33CD23F30B99
B0E5FF24271FD4F8
4F26FA8B17EF0806
00000000000000F9
270CE7602F34FF30
EC2F5D25535E0FE4
18147AE6F1E42BFD
DEEDF6E125A73008
4414DAFD3DFF38F1
C4EECAE32EE8E6FF
F4E2F5D3343338F0
CBE7430837AED51F
0000000000000008
062CB71915F30F14
C8E4F934F5D629E7
F5EDE2FC15E113FE
0D283C0FFDEEE0F0
01251AF3E7CB06EF
E30138E230F6E1E6
0624D7DFF51D38DF
3830D71CFDE73030
0000000000000076
12321EE8FAE6F43F
10A9EB1D48C313F0
C5FC35EB0745FFC3
FBD401EEEEECC11D
F51DF5D638A113DB
67E8F10D0EB8CAD9
8FBEFD43F6DFB606
17FF248E3D110C27
000000000000001E
ECDEB4E6B2CAF8C3
3B68E9ACE929CCF1
120E2BF6C1E814FD
FB0BD62D32DA6E2B
C1D006102F4A3709
C4EAD1EE31E0073D
1026E51968E6DA05
CBE1ED3CE6263ACC
00000000000000FB
E617F60305491432
EC2E7D4F1EFC201B
3623021AEA00090B
02E23D3515ED43CF
2CF362187FF3D6F8
1BE5B5C415EDE824
D306F8BA63B12EF6
590B19231FB3FDD8
0000000000000009
C41DBBDDF40B212C
AAF8D8F90F1C121A
2BDC1B05EEA60923
36FFFFC9FBD2F623
FDE721C0DCAFF0FF
2928B8C7DD12E424
05EA262BE54F2F19
4ED9CFF0CFE8C9F9
00000000000000F8
00E748C902031712
CEDBC40F3748DF1F
B3ED2D040CCFCFAF
A605D59A0D1CAFDF
F5EFEA9F38E1AA14
382519F3EAD9D4E4
BDAD0E1A03FABCB4
07C008A4EB2B05FD
00000000000000F3
203418E60706230C
2A16EC49542F041A
193DFBF02CFED01A
C809301FFA129E4F
3B07E3FBFEE80EDC
4CC2D6E7E1D3F204
F90F2BF7ADFFD6F6
BC0DCDEE0ABAE3F5
00000000000000BF
C2F41108ECE11E40
EC3318CE051C3727
3B253DF31A3ACE22
236021352C2907F2
3807FC07286D2317
A3D81134CD08F4FB
46FAFAF9B6B71008
C8DEE314F7C0FA04
0000000000000001
171C17ED0034F6E3
CF441B3B1F1AE427
F7F0F41DE3D2BDD8
F8A8E6D5AED3DACB
DC0DB7E7EED4DDF8
FB300B351E1CF547
ED22CB083128F635
B1EBF429AD213DBE
000000000000002D
EA1AF2F6A2416B32
141923312C57194F
191A2C11F632EB29
2D1818EB0A230D0D
D8E310E7232B2614
0B02CA17B0B90CD5
FAD5D915CEB2EF13
B8BDD7EE16CB11B6
00000000000000B4
3D1D190B2CF0110D
3D382FB64B470E23
3C01E127E75BE617
2DE2B8C62512E842
EAE520B733FB182F
0405FE0FDFFAE303
9DF438FCD12B0AC7
0CC0DD01E2E3CBEC
00000000000000C8
E51411F0C31F5316
E2F55D081915E004
FAE6D835EE14D2FB
35CC0103E20026C3
F5CD31D119E0F12A
544B9CFA46E785B4
A4CCB723E8B6BCBA
3EC4DAA6312D22F3
00000000000000E5
1097F109F5F90A03
F3E5FCE3CE03D4E8
C3F937ADF8C519AD
86F0C1F8F8D2DBF5
06E8E5C0E4004AE8
27B3FA011AC3EFE1
AE0404E6FC07CD26
F9C9FAD03F069E12
0000000000000012
E2E116E1F7EA04E4
BF0B9244F6FAE0F0
D60AC3CCF6C2ADE0
B812D2E5A150A2F1
27D40F87E8ACFBF5
28D2EE8B1DD8C5BB
CED721401CFDB5FB
3914DCDD0ADCDF0E
00000000000000DB
292603E3D2182330
E7D993FA1B0FEE33
17F9DFB6FEEB9D81
3AADD2BDA6D2C0D1
F0CCD3DFECC2CED1
08E0252CD6E82BE3
82B7EA0BEC1511EC
25222E151F1274E0
00000000000000F0
130324F2DF2DECF1
BEF9D00F39522177
1D082826B4451ADC
60C923CC39FAE9BB
C712C0F8FE10B3B1
40E3C33D2105E8F3
45BB7FB519810C13
18D01F14B4C346F5
00000000000000FB
064209DECC203D1F
FE110215EA15DAF7
03031737090D5E25
4718FF0D142E35F2
AC1C0DEF18F55B1F
1AE9050F2DADCD1B
E6EEA81FD1C6C1F2
EDCEE3F74BD03425
00000000000000D1
47BA111E3FFA1511
09F15200E1D3130C
E258E825D82A04EF
FB3BF40AFFE4A409
32FB0C42D6184CE4
E809D5FED6EBFFE9
0AE3CEEE9928F02E
EB2CD5D7E2CC0630
0000000000000028
D0EE0429210EEED7
F8151711070E13FF
2129400916DF1AF3
00D64225040E461F
FA3F1D32133E5412
2B28DABF2FBDE8EF
050522EDE0F116F2
201820ECE9E6F0C7
0000000000000000
35370FD4B60A0B17
E2C4DC14090BE94D
E60CF3A2ECF8C5C2
E3A7D3F5C7A6EA0B
46EFCEF987FFE5F7
EF0C1EF0F5FB3F10
23040CE63BCC31F4
081CACFBC74F5B2A
0000000000000017
CB39B3B4D5FB3751
2BE4B302061AEEFB
F09EC0CC32ED1702
DE49C8ECF2C523D2
2EBDE0D701C6D2DC
9D20483FE8633D1A
E8314C0C55F218CB
0DDE1FE9D1403140
00000000000000DF
E5E80ED3E1AC0DE8
D0E7BFF1C1DDDCBC
F8F1EBFF13D9020C
5D2622F349D3DE13
D4ED26F8618B250D
12ED59DE2BE606C8
15CD2337DCE796A2
F8351A11E2D55E52
00000000000000ED
14E83FC1FD0B0313
F6B7D2E01221F61F
14ABE4FDF9DFE602
F0E6CB8136BAE2F5
E3B309F1FBD8DE27
07F3E0E3CF21FCEB
0ED36747F23212CC
08DA101A1262D1C8
0000000000000011
1C18FC01EC153907
E7D5D9100233EA2D
E6D1DDE4D8EDBAC9
C4D4E5C80A46D1EC
92DDFE0ACBD005F8
BDFDF40ADFEB4EC0
0002F409F20922C2
FC08BCF3D64AAC0B
000000000000000F
0F06CEF6E1052532
0D774623195CFE35
012D16F334FC3945
11E211063C234AF8
1E0920F9D61D6B2A
FACA7FC4C419DE64
501629E370B1FD0B
16DCCA3313CF59C8
0000000000000049
D5DABC0C0CEBEECC
E61037ECD2E528EC
392B24CE07043D2D
14F12ADB141BD236
2DFF2D21C312BF09
4612E802CEEC1612
01010BCD1C31223E
0EE4E7D0093834D1
0000000000000014
1CD762DEECBD1314
DCDFEBEAC708F3E3
B5DA06ECFBCE1BCD
D7B3D3DCFCB400D2
171DE2EAE6DEDEEB
1CFE230A072D3618
F1E7231C1D00F2B0
B814211CE4221C0D
000000000000003B
F63362FE2F13F5D3
A7F20CF6240AF8EB
03EB56DA2A542627
9BCA542539412611
C9E2F32CD10FB704
C9EC1B3B2267A71B
0D0E3F47FE262348
23F2FA3ECBECDE23
00000000000000D2
D451E7C9CB171111
1914E6DD130FAF29
A1D6B3F3DDEBCDCB
ED42D8E0E1C029DF
12F8F8CA03ECDEF2
FA14F82B05DF2F52
01081C15212FDF08
29D3301E1A0B402D
00000000000000F1
DED80DE9D6DACDED
17DC292CF220C553
FCCE10D4EC3BFB0D
F4F6EF14320FF6FD
50CF0B05D52213F2
2B1AF129241CFCFD
F91439F2062502FD
0DE31CD3362FD90B
00000000000000D6
19C3FB0CD8D1F602
F2E092A6DAF3C8AE
21FF2AF4D1DABAB6
C52CD9C3FCC2EEBA
28D3CFF19EF1F1E4
143BFA12F4C8ED02
02F9360B070AF5EF
13F60EE42A302812
00000000000000C9
112815CAE2FD2102
EC0FB2180E35E221
0DDFE6A3E8ECCCEE
C0DFE0FFF805F311
0BD0EBC3141E09D2
4EB12B203EE00F56
FC1A42E02221D53B
00F53CED32DFEC0C
00000000000000CD
FB1B0519EA1C19E2
EE03F10C3C3A0030
E4E7D4CBF50BF3D9
E8DED5C90B19EFE8
1AEF1112E5120DFC
A3C9FB15EC10001C
C3D01B12CCE3E9CB
2DF7F81DA60227E5
00000000000000A5
0D1B2EE504152625
06C2C7060916F9F5
22EACC1F31181B0C
A6C6F316AAF5C1B4
06D8A9C7EF23E1DD
315830291DE600F7
9BE4E323C7EF02C9
DCDEE0DD312597BE
0000000000000000
F8F3AAF501EFE620
D2CDC61ED8FEF2E2
C4F5DCCDD3DECBCF
B8C7E3FBDE02D0E9
16D0CEC8E0B8DED6
08EF152422163A1D
FA0D01111F3712FD
27E808F517062738
0000000000000012
37DC2A7F43F5CD01
D202E7D5FFE737E1
F4CD46D0DEED2DD3
0BE300E6F1C6D2E7
1E56F73B1921432D
1B35EE02FBE3B028
43E2FCD3EFC1090E
61301442462C0F1E
000000000000004E
D6DCF2E311D8EC02
354D1BD6FD32E3EB
041C0E3C0D2B73E5
F1EF00221C533440
00075CE4080D5C07
D5502DF706D02E10
CA00E42B1DE43511
74DDEE0406D1C0E5
0000000000000001
CCD5ECE51EF7CB07
F6D2E9F3DDE2150F
F7FE224718321F01
3236EF4CAFE56161
6F11352515D01433
6802EF37042834E3
01FEE5BF251DA636
7A022B0CBB0117E8
000000000000001C
04EBEE48E5E9EBF0
465010E4F9DD4318
E7406351E31314F7
644AF9F30BED35F6
FDFA2B3F0C3D15EE
4427C6F01FBC1FE3
E4CEEFC5F2C1C345
142CF5F9FCAFC500
0000000000000008
E10F21F2D7DF0818
35121CD52048B91A
CBBA1D3EF4E34D0E
ECF2D830012E570A
0DE6232BEE37EF0F
0D04C5A71EF20112
1B1A28E9EBD4EEDF
F3BAC5EF02C7C50E
00000000000000E4
D61116503042D4F3
0CF0A5E317F73817
FD601533051BD7B4
1A021D6AEADA07ED
D8F100EA0B50DCFB
54F22C3D19B83525
3E2ECFD41617104B
2F2FEF2BFBFC5CD4
00000000000000EE
CBC7ECBAD6A30931
040DECDDCDF4CDEB
9BF704B9F9E2FA03
B228E1EDEEEACCBF
250BE8D206D31EDC
19062EFE20F9F018
FD1F2D1527FC2A06
27B32424161BFBCE
00000000000000EA
D9D91D3419F6D317
02292C18E72E3815
221B2B2A1610072D
261A2A290C52120E
2FFF5A2234D3002B
F414DCBFDBE41808
C6E8D30BDAEE13D9
3F16C2F83036C2CB
0000000000000043
FA2B0731F337EBEF
F2E33C23010606EC
45E1F30EF841E900
261B6BFB4EDA50FF
04274D3915404E37
CB06E905F9F0DCE5
F9EEF2EAFBC82519
30DFF7EF19FB0506
00000000000000C4
DF36DEF30808F5C0
DD05FFD12E1323E2
0001EB0D1D27F536
13E3F7DEF7C617E9
1102E30B33B7E0F9
2E9EE20CD618DCD7
D7EFE5B100F60CD3
B3EF1CD223BEB718
000000000000002F
E6312D0ED8052D0D
BAC600F61DF3F007
B4E932BDF8DBE2C8
F3BC029DB900D0B3
43EE01B1EFED0AC0
13E01B4031B1D815
0DF3D04CEBEE2014
5BF32E1A0F316793
0000000000000049
24010121F21421B2
D3ECE70726440F31
020A0004FE04D5F2
F5070905F4DEF7CE
D553EE22D414D3ED
B67D2814D8E8FE43
294ACC386ECF4342
CB41C75AF30AD45C
0000000000000008
17FDDE554038E6F6
F01E040B47143B2A
F413F0DE11F9F017
D7DF250312D920EC
FA0DED36DA0CEBFA
E8D13EDFFE512F3C
4315BC1345F7432E
DC03C421F4FB9CBF
0000000000000045
2E21F2F5C80C0B06
1D08AFFCFCE012CA
A3C5811801DEEF0B
44ADE1FA2391CEEF
49F8E3E904F7EF2B
C53023D30D1C160B
402332CA93C009DA
E5C4CF2CF2183FA1
00000000000000C8
0F1717E32C0E1311
4C6D27F11527F0E8
C31B67FB2E120A47
330408360742383A
D1FC1C0E122EF943
E4FDEEFBD70B623F
3AEACEF551DB0014
DDE5060CDB6715D9
00000000000000D2
CEBFB8E0C8D015B6
013095FB040DD8E9
AC2069A41DDDA61C
22EDF9E6060CD3BB
A1EA479A4F13F827
489F30D90112293B
E0EA1DE2F2B00120
E805261117300C1E
0000000000000025
CAF901093AE4D7D4
190A2FFDEFCEE79D
113B051B1F1B2C17
2D67101215697711
D21EF04D0CF3EF26
EF02E63EE2120105
0F28DB3C3B1EE26C
DB1AE241F61E3520
0000000000000006
08C9CED1FE19DCCE
F8D943F1C5DB3102
5D150E031E5138E4
14F10BEFF0F6103C
331E33263DDEBF0C
E332061FCA0402FF
CCDE363E0F7324BA
D6FA170504303318
0000000000000009
202B041422283767
FB0E422107452B14
FDF6050E06002022
12F3EA131024140A
F02E0A3D1C1D571C
F0F4E9F4FA02F0F0
10FFEBF9EBE2EC02
FA09EAFA05E7E9F6
000000000000000B
E7DABD2A0D22CF23
2CFA15D9FD000FEC
5EE63D0606FB1A14
30431D391E5E12F2
FF0F3F142D170329
39AF15C9F8EE35D2
FAFF3EDE81991DFE
ED0C261CF4EAB6F9
0000000000000000
CAEFF6E71505F40A
3316F01AFFE54DF3
41E909692F155118
1E370DE6244C31D8
DB4C133626320644
040AFEDECE2DF0D2
B0265118FAC542C4
E70A282F06E6F3EC
000000000000004E
D0F7414413FEDACC
3CD82DD2D5E81FF5
6714540C0E0C20DE
1147FA2117725F40
7FFD18551A5C79DB
634DF5F8FED81A05
FDF7D82F74DD3636
0A14271B57B8DBD5
00000000000000EC
201A3319E800129F
31BA2412E500D626
C407D1DCD7F4F2C1
E9D8E8AC29E0F0C1
62E5C70899EDF4A8
0EC111242E16680C
0BCD24063B380B1B
0E14A91300F922C0
00000000000000F0
EE552900F4F6FE1D
0CD2FC17302ED013
0802CCB1AFFEF3F1
292DCA12EB310121
30E5F82103E30D3C
1205FE1812E5E8EC
DDF9DB3DE00BBCE2
DA020CE93416D322
0000000000000081
FB1EE194F20358C1
E6E3B41CD1CED0F3
B9EFD8F219D8C7BF
EEFEDA0EDE04CAFE
E9E7E8CBD2E1B6FC
F92FE408F90F482D
07377DD4153FD71B
4BEA0FEECC29EA03
00000000000000DC
A7F529E60AC404F0
FEF01005F917B3FA
D4D5070005E5FA15
DDC2D0FDE6DEC508
2DD1C9E9C821CDD4
FE080729E6171013
0003EC12013001F3
1EF3FC2AEA1B1E16
00000000000000C5
D92902C70B261105
FD11DF051B10DB2D
15D90BE4DFC3ED30
6DE3ED080738BF22
37C33ADD0CBC00FD
200AD4E2FFFB17F2
AFD819FEE93EF8B0
11D9F3BA0803622A
00000000000000E4
16FAFE05EA5C00F4
11353E2A112D1B2C
0E3C3712231AF007
1652034C0B4A2754
E116FDFF2D053E0F
D60B14FFD5F2BBCB
FB23B3C1E4000905
DEF127BBD9B70AD3
00000000000000D6
FAEE0AB8B525301F
0600FE09F526042C
E8D73302EB2A0BD4
11F6E81512C514CE
54081CE702FBB720
A5B7CE0C4DFB1AC5
E8F9D0CD26D4E5E1
32FB21B09E7D4724
00000000000000C6
F9F335E9D3100A34
EAF6B945EFF8ED37
9BD006D6CA13140A
0005BA14E1E627C8
DFC9F0CDE012D81C
0CE8CF202CFC0C0B
D53F100B29FBE9F5
E92C1B39FA4B3009
00000000000000ED
051FB1380C26D7F0
6B261F3B243B3714
0F4550092E1EF52F
4F1D1353306E1635
1B101A272620093E
1FCFCA10DEEE26F5
E9F9CA2B2ED1C70B
DEFBEDC822D2C7E3
00000000000000D3
F3C2ECF3D7F4FACE
1CE1FAEBF5E8DAD1
260001D616D4FAFC
11CB03DFCCCBDA03
1403E5CAC2C2DD00
12EB17FE2C1C1A09
15FDDC10090B1F1D
20180DFFE71E3C07
0000000000000003
2BEBE4644E181BCC
0DF0041BE2E80A11
1EF9EFFAD7CCECD5
DA3AE4FACCD4CADE
2608EC17E6CC53E2
2709C0911DCEEDD8
E8FAFBA4E211E8C7
EF0EF9BA23D69837
00000000000000E5
D21112DCB4E83F1D
D3172115F208B61B
F818CEFFC496BED2
E448D728F59B2BE7
4FCCDDD8B135C2ED
D536CAA104F71118
D517100C46CBB617
EA178F4102BB170D
00000000000000F4
24342814C7402A20
EADCD5152A2CDE33
DDEBCDB500CECEEC
D0B307F3CEC3CAD6
25DFF1DACCDEE9C2
E5CBFB1214F9C1EC
1FD4A5FDD2FBF848
28FDE3EF11DDEBFA
00000000000000BB
2637F5C0E02B1A01
F1CEE34F3D61EA0F
0B11F11DD615F1E1
072AA6EDFE3DF2F2
E6DCE2CCCEC411F9
D8050AFB4AD90401
C5FE04EDEE2BE5C1
CEE0FDBAEBD41034
00000000000000F2
05F908EB1E24082E
3BF2E7FA042B10F6
18350525CD54302C
56DDFCF6FC354AC6
1E2F184241292220
BED4C855F3DC19D4
09DF040F52C2EAE9
0D341E73F8DCF2CF
0000000000000036
33E0202759DCDD4F
FC361FD2F0C213BE
06F1420ADD4207D0
1B21DEE33859012C
C2DB480C0C083107
CB56EB22E0D1122C
83FE40EFD707C2E4
4513D8FD0DD80413
0000000000000005
D2D1271F20CDDCE7
C86743F9E4F9CFCF
11270F1523EF2EC9
46140A0F24111DE3
072D4EDC5739F913
E3ED22B9B80B102F
2728B6430E190BF0
5C140BC6DACE0D26
0000000000000029
0CBCFC313810E8DF
24EC43E8E80D0CEA
D439F8EA19230555
F52F1220075C251E
26EC3A26CC57250F
23DBE2E3C7010AD6
1FD2D810D932E54F
2414E1EAD913C229
0000000000000002
FA2D44EDF02323DC
3C3F41163736DC35
100542713A215115
23DE16411A2F1903
C11115323BF73F22
0735F6E7F1E9E9CB
F9EEDDBBD9B0D1B2
D3D50204150A0514
00000000000000C7
E3ECD4D4B9210728
F1E3C9FADFE2E30F
AEDACFE60502C6F8
2E24C228F6FE1BDD
D0F40BF5EF59F5F6
151B372A21113D13
E315E2322AD600FA
014E26202EF63F06
00000000000000F6
FB0EE2C4032E104A
F3E001D202C7F910
B2E5C91610D312E9
CCFDCBC2E704E13F
F8E8EDD7D0EB87C2
4239D50B1A31F21B
F6082C2CCA381A02
CF1A09D0B097193D
00000000000000D3
ADBE1BF4CEBB10A9
0BEAEAE2C3EDB5B3
10EA2114FA010CFC
442FC005F9181FF2
13F2FEFBEF3E0FF9
0339FA18CA28FF0E
C2102620020A0AF5
17FC1C32F20E5904
0000000000000002
2426C7D100061A42
F908D80C02E6130C
0ADCA97FE106064B
4D12C5D4CC12EDCF
FB1A51F506EA0C16
B942A3E0C04E16F1
A3CB02C1B1E1030C
29DB2C08DAEF4006
00000000000000E5
13FE2A05251AF5CD
2418C3EB09FA3CFB
5E0D461B0FF92D3C
170B300A2BC3D333
CD2237352438F7D8
26F60015EB203E06
FFDD23D9AEE5D126
F35202701FC6E524
0000000000000030
F9F4E6230CFCEEF5
0F2DE316F6231F2A
2F45000F131CDDF3
FE5A2A43F718FF06
CDFE0C26212D0316
CEDAF216E1F01912
FDF7F7EFC8EBE146
1454FD5F24ECF6F1
0000000000000004
D1DAF1FDF0C50601
2411EFE3D0C1FBF6
DF270D0D1F2BBA07
FD4B086FC92E434C
A23AFC26147F433B
B5C60558E5F633DA
1BF8F63D0E24C75B
1436F2484F0ADE11
00000000000000FB
F5202695940B2F25
21DADA0A192EB624
FD24B296F9DFAAC9
814CC8B9E8EE9B0D
08C0DBCDDD0EB0F2
EACC120081F52E1F
EA17082600321704
0301223AFE472632
00000000000000D0
D4910AEBA5C5E914
09151BD3A4EA09BA
FE05130801090902
0806F40B0C0C0D01
19C106A717010815
0E0FFE10E7130611
F10B070C090AF9F2
01810CEC0E160813
00000000000000BA
2AE51E2DE33103F8
ECF51630F8E0EB02
3D4347B4DD03159D
E50E1CFCFEE7E7FA
050E0C60C05702C8
EDAAF52014F302EC
22C80C35CDD2D828
120BEDEE06D03DF5
00000000000000D2
F1083C091EE221C3
0A3729F41B2CC8ED
1BF72120ECCEFD31
D6EEC9FA23EFF729
C307E4DC1D485E0F
0E0915D80C0910E0
FBE4E5F1DE06F6D7
D4F2E701CED0C1BF
00000000000000EC
65F7F8371C4E06E6
152515280749F5E6
0723AC1105F1E220
5830E90F18263112
D8E80F42FDE03D15
D37FEFCBE121F3F3
0111EAF610E0D845
DF0628ECDC0027D8
0000000000000032
E7F80FDEE9EC2717
DCD8A1C4CDECE7E5
C6DAE4C3301A0D03
14E8C62734B3FDC9
91F9050393B5FACF
2CDE33510622061B
1E10E5EA290DB7EC
59EC8FF8F2080D14
00000000000000F0
43D529484112FEC9
39E91209DB2D1BF9
1DFC05EEDFC258C9
5ECFD919EF281735
0C41DC69111039E5
17DC02EFF7E142CD
2720D5270641F864
B237C6DF2CE952FB
0000000000000018
1D51FD204E592B41
FC04F6442D313775
E607F4F7081C0FEE
2720030101262B35
DDF2223018093903
E3E6E5F3E7E6DCEE
EEF8EDE3EEFBF6FA
F10AE7EAE4D9E5EA
00000000000000EF
243E13223F352005
02FBF52B22122E4E
1804F40203030809
00FB0A08FA070303
E4230228F4FF0EFA
ECE7F4F4E6F6F1F0
0EFCE9F6F0F0050A
F11EEC0CF6E4EAF4
0000000000000038
B6A5CCEFFBC890EA
1FCAFB9ECEDB0DD7
20C1FFAFF815351E
E69AD7B5F2E2B0D7
6608B1FE0EF1C1DF
00101B34362CDEFF
CA112AEBD61D11E6
E7D801251616241B
00000000000000F7
A1041701CEC2CCEE
C10B5BCA0106C29B
CDD347EEF7C3EECF
350FDFDDE046C6CD
49D8FCCEADA1FA0B
962A1DF04E3BAFC8
0418AD43EBE614CB
3819BFD1C64E6B45
00000000000000CF
EEE9DF2130F5D5F2
0315F7EE00FBFEFB
0F302B3F2324613D
314C155F3B431450
F62428121D451436
EFF7F74BDE5CC204
F211E3EBD237D837
3735F754192EE1CD
0000000000000000
0A2607E1E02F09D8
CF9EB1FD2A020D0A
F1E8ADD5FDE3FC16
F32EEFD7F511B5EA
10CD1BEF09C822D5
32E1E42823334BBF
15D53724950C252E
14CFFD141A29F328
00000000000000F1
283F37DBE81C2F18
EA11C625393A0735
B325C7D50CE005EE
22119ECEE4020FFE
AAC311A6ADAC0BE4
C6E4E3DDDD2EEC1F
CBD5BFFCD62A16EF
050ECE97A61829F9
00000000000000CC
FD0B0E05CAEDF4F0
BCAAEA18E3F617DC
0EC70EE1E9A2CF1D
F5B4EEF2EFA1BDAB
EF06F1C9F4CEBB12
0BE135E40D2021E6
EA4DCB240F0D43DA
E619432917220A1C
0000000000000060
40F003484D6C062A
FEDD060FFC1C3017
001D04DDD3E2C307
05C3060CE1EA0AFD
2F41D545EF7646EB
23201317D6EE4624
201F10AC00F0F447
D10D261C36F6EDCC
0000000000000072
E2313BAEE0181E2A
F028F6E8105FD5FC
F4E820F60C06EEFA
E6F8D1DA3F140BF4
E4DEF0C8F8CE0AF9
4BC83416F02B4BFD
D3FA68FD22120C12
E0DBDCD9F00F1E1F
00000000000000BD
F9F8CD6B25B9ECDC
DDEEF2CA1A18ECE9
0111F406FEDFC804
FF11328E0205E40A
D725183DF238EA05
FBE13B1BD5FE1D07
6BDBEA352DE40A5A
F7230468C3EB0514
0000000000000005
241AC5E1021206DE
E9D6EE101822D9EE
FAFED0D9EBD6E601
D80308D80BDBC605
46E6C5EFCFEC03F0
2BE2F4024A343CAA
1AE24C21F72BE30E
FAF0B40321417F29
0000000000000001
1FF8B619F1D4CDDB
9DB3DF473C4AD7ED
2813DB1E21E6E73D
D73E3304C4E41E40
09F029CAECCDF4EE
B8420CFA45F0BF99
09DB2BD40DDC4F07
3F27F3430AA0F420
0000000000000018
04D5E5312025E5F9
2D23591100F508E8
662129F52EFBD24C
40372E141C333BEC
1D1A03301F066101
9EDA42F4D91FDA40
DF23FE1333CFE145
1CF508D737EBC320
0000000000000018
0717FC29F6F626E2
3EF934F1CFCEEC81
B728E50EAB1826E5
E6E0F3DBF627C3ED
2FBEC7F2ACE52CE5
3E3F93CD1FC8E52D
C6CDE5F29F0FA22C
02FDC5D91CACE294
0000000000000002
0622FFFEB622F4DF
EAD802FFF2E8B9F3
F6F90C0602DCF1F8
F1F20FFF0297CECD
12F7DCE0E8216CE6
2F18220512FD0913
290804EC06152A1C
FBC225001D33242A
00000000000000E2
0E34D5394339C8E9
12E4E01B252D351D
3EBEE1D0CE0BEC34
D0E5EFF3FA00DFBE
20CDE522ECCE0DD9
E715D6524D62DC0A
CB2C53310A310FED
C4402FE1440EA555
0000000000000018
DD371AEF01F5B951
E3D0B9F726030E01
BECC1AC30BF3FA36
01F1BEE1E5EDD6CB
BD0F30A8FFB5B525
26C1E2EE2237C415
811DB6324EE308E7
5705270ECC4717EB
0000000000000017
F0EE00212219F2E9
2039410AC0C9FEF1
091E021F262A3825
0F5926E22336302B
F10A15114F4B1722
F7E626E5BC53EAEC
08CD213DAF05E6F7
F8FE30480EB09BF2
00000000000000E7
E0F1C4C4D6810ACA
1EC50DE1E31CB9EF
C5B114F8E5F20CE4
14FCC5E019E1D324
EAFDFDD5DCC42120
13350520001447C1
0F1B211B222610CD
16E608D0FF35652D
00000000000000E1
E3E210E3CAB8F6F5
E0F662D1CDA9D0B5
F3E010D7B2EF2BF2
F50CE9163D201CCC
340004FDA0101D0D
54B106043818F2DC
EA223525FDA806DD
0F14920E0C2205F9
0000000000000009
ECC51B493A14EADB
E1EBCF14E12536DB
41043808250FFD1B
EB130FDB2D25071F
BCFE343413F16CF4
C7E9F041DD00B2F2
3AE300FB2DE0475A
231D1D07FB04BFE6
000000000000001B
252DFE0E0EDD0881
40DC11F1F5C00BEA
EE191D3FDA40210A
12FEEE3B104609FE
2C3D47492CDAAEDB
BE03A75ED5E33CDC
F819135A1CFAD8EB
2D0C0FD5C79FD90C
000000000000000B
3F25211EE54DF0E3
0930AF1F524C3421
F81610DBD41EC011
49072DF12043ACD3
CC06E92BAA3AD6FC
CDA40023E4350E1E
3E2DE23B9DFF0442
E85AA630DF105400
0000000000000055
E81786DBDF9604C7
E5CCDCB2C1FDD6BC
F1AFAED8E61DD4E8
2FFCB8DC33242502
B80D10064301E530
C9D6F938063407F7
E71BE0211422FFC9
FCEC031FED5CF732
00000000000000EB
E8ACFDED5516FCE0
0E27F9C2F5A94601
4923FE38370E2625
1E3C38320BEC26F9
C043DB1706220007
DF287319ECDACB1D
FF0220CF3F2E3FEE
DB3BFBD5D4E022DB
00000000000000F9
D7D5330A4BF1F443
1C1F2DDBD9C2270B
3833DE46361AFEFC
6D312D1007050954
0C3F11211B4D1212
E8E53A070D082404
DCD5E7EDF1630C20
C451C849F8EF1505
000000000000004C
2C323A10FCE8272E
A412E8F40EFDEC0A
CFB9BC08D6E621A3
A3E1A7EC3212AB12
03BFFF9CE0D3E7B3
4732DBFB24F8AA2D
9DF433D8BDA9D900
ECB807D01491BBD5
00000000000000E2
E20BD2DF0410ECCA
E9EB53DFDE24B619
D5AD9B00E1DE43B8
B7DD81D21AE0FDF9
1CA1DDB515C94FD3
0B22F2D641D8351E
A531FF36254EE9A3
DFBB652955059B29
000000000000001B
D8BD2EE6BCCA11F6
EBEE15FDB701E1B3
18EE0E10E2F6EEE7
08F70EF012F8F6EE
1CEBF6E8F6C4C2F9
F218F0071E0FFF0C
0EF80C321A070AE8
14EDFFE9F910060D
00000000000000FA
FFC2072D170C0011
E9FE2528F0171622
F52CF92139191C39
4523573322344112
EB0C482940D04E22
E9D20BD5F821EAF0
27FFE3E9FEC4C448
0B05E4DEE816F0DC
0000000000000005
1B201C20512E12FA
FAE0EE491E211E2A
050B08EBFE050319
D10621F5F72303ED
EA3B0036E7D63204
F8D5200F0DFA0E00
0C02EF3B130E1BFD
0819E81F15EDFCF6
00000000000000FD
F7E9200E0CBFF6D7
BCE3B614D3D7FD00
DE3615BCD7B8DACF
EAFD04E9D0CAE9A9
1DC8DED7F8031BF9
0CF12EF29FEA1836
38FBEBDC19DB1637
DD120E1A2C213B1D
0000000000000022
28D22C2A37F6CCDC
F40750E9D31FCDDB
2D0C36450AF83F18
18F3193E01371702
461AF012216E412A
04410BFCCB050FF9
FF1DF6F6B12FE906
F61D1F62F46EBA0B
000000000000000B
06EAFC3915E0E81C
E1EDBDFEDBD655FB
4518B01B3A23F710
433A22FA2638F64A
280F1D2700141E04
CD2B590903FAB8CF
2906470AB5E3150D
0C74CDFD0A08ED02
000000000000003A
D420CEB7EBF42417
0ED0D9E1300DDDCD
ABACE7A8F517CBCC
119BCECF2DDBCD15
D20BC5E5EBF2C5E2
E7A5E5F138F02DD0
FC1F07FE1C1F9EC8
AF19D4BD9F0840DD
00000000000000E1
E81E1DDBCED514C0
F120E2FB5EFDCFEF
E4E20E02BF07EDE9
9FC4F0EDCA09F1D9
0FF3FFB7F6E899EE
27E52D26D4380434
DB090F2F122706C4
34EB1EE501F2ECC6
00000000000000F9
45FE22100B170F1F
DAC6FC38EBBD2708
FD39FE2417D0D7E2
CDDC2A30D6C3D0D8
B372101AFCC6F4F9
C72AFDC3CF154FE2
6630C12330DE082E
D1EFFFE2E8E72F08
0000000000000055
0E352A010EFFBC0E
B90A4F260EBF3CE4
EEF6D7E72656C0F5
BDA30F15FCF6DCCB
284917E403EA0505
2EC9547353DD0E48
1EFA4945D7B8124A
F027D13FE63FF0C1
0000000000000054
03F9EDE5089F28E0
F54E46053D2AF71C
25432D1B152CF74E
434A402105257740
F13411F526E94A23
E9E51726EEE5E9DB
15DFC3D04BF8FEC5
F113F0C5EA2028E9
0000000000000022
FA1713240FECE94A
E1FD0262E426380F
251C180E15511216
0EDB445925FE3DF4
0D0733ED0F147F08
C9EB1FFCEDE3CBFF
2303F6F103CFD833
3D0FDEE1E7C2F3CA
00000000000000F9
F4FBC5EEEBB914E3
E2E4E1DA28ED022A
EEEAD3EDE5E5DDE5
DFDCE6DDF5E0DEE5
2B00EA06E0E8FFEC
0B152F231F1D11FA
FCFD192711250AEF
1205152430252936
0000000000000007
FA140FE606BAF5E7
C4D6D6D7E0CBDFD0
C9B6D2BDF9B9E3DD
99C7ED1AB408C927
EBB8E4ABE8CB07E7
95152B013FE3092C
102E25280533E43A
C7F03618395CC0B9
00000000000000F4
34FC1F0A0646EF15
F00D15080A1F3622
35E22A161D543308
FA102D0910A3E331
C42C1D111DFA45EC
DCEDF020E1B9EAFF
2CEEE3F4EAFB09FC
CA2C0FCB01A700FD
0000000000000020
102A0310020913FC
07F83FD8F82934EB
2A2D0FF551150E32
142B4234EC543F19
241A1A46D5FFD441
0CD1F4E6CFF7DF04
59F7FCD811DE1C16
341EF2D9E7DDC306
0000000000000015
56D406D4EF2C31C3
CEC3E015D5B30129
CB05A2F820F2DFEB
FBBAFCDDFAA199F4
AE24D4EB04B7E1DF
E0252223B5FB0D33
2B16DF04243620DE
F3E82900EC254FF8
000000000000001D
E1BB053518F8BDDA
B6F2E3E6EEDA24D3
03132332BB0D4433
24204EC530C922EE
CC40F045FB2B0BE4
CF56D908EEF6E61A
50F250FF2ED53702
186A344E641DEDD0
0000000000000013
0F00D8DCFA2E1720
DFB0030A10D4EE0F
C1F922F100C09000
B6BE1105F3CAF4F1
09DAD4C9E804D5B6
362628ECE3301705
C9F30705294AF501
EF08F02BBB0D3AF4
0000000000000025
B221EEF6EFFC071C
F2CCEC28F1F7C30A
D3DC0703C4EDCFCD
AB0FE59A1FFCF70C
13BEDBDE13B3B608
0DD014CD181D27EC
28BF1207E932C7F1
85D431190F1ED904
00000000000000D2
FE26230EEF25210F
011D06FD0E16FBF0
DF2601E0FEDAFAD7
33EEF34BCE18DEF3
4DCFD31B01D1E6B6
03E71529E3D1B72C
FCFCC441C0050706
280E0EAF2CF3401D
00000000000000C5
1C46F1C5C01D11E3
01D5E9022411E41E
2ED7D7D100CE17D4
F619EAA9D8BDA3C3
0BF5F309D0FEE0CD
10DBEDB52F0D29DB
11E53031B2030FEE
1F1BE5D7F3C8EE29
0000000000000012
2E0EE0EDFCFF1E1E
C3D7B9FD33241045
0BE7C9CFD0D7C101
B1E4FDC5CED4EED5
22D703D8E019ACDD
1B2CB9C137FFD6E6
2EEC250161450C2B
440541C915221703
00000000000000F9
CD0DFDB0C72CF60A
1326F5F0211F1206
22F50E1416051221
2BFA08F214071B10
078E09AC25DE1E14
23C1E1E9CA13E70C
D0ED532229F011A4
07E719D9190B0DD2
00000000000000B9
C8F5191C1718D1C8
5A532B141C43D9E2
483F4F502B2DC7C7
C95229253153F805
D4243CF50612FC30
B03BF71429D1E615
1BE21A00CAD71B3B
2CF2B8B5EB19F4DC
0000000000000006
EAC7E12931BBCE05
4CBA37FBD9E5F9CD
FA1FE6F2203D7626
5C3C010C09503414
18063131D8F034DD
D0C221D82AE13DED
2342ED6245EC591B
4A10113A48BAED17
000000000000002F
051E69FD0E29FED7
C4562C1914DE4144
D5F7C63F2D25F700
2DEDDAF224E31217
0B4605DB51300321
1C2ED3EF1BE2963B
B5E904DED4EC1DF1
ACDB12F7EC0ADFC4
000000000000004D
F905FCF8D03E1FFD
A092DEF1DD19D91A
CFDC44F09AFA1DCB
E023DF90F79F30F4
06D2BB0EB510C2D4
F319A9252A8198CE
31CC0B063910A5CE
BE06C134DBD7FF1B
00000000000000DD
FCE3E7D4EDCCE628
28251AE3F13704ED
F5192B252226140C
4474F82A2A2B0B43
D33E27F83D360B33
E7F42709F4FF2C14
F62DE81730D717D4
E1EF4A46AD79AD69
0000000000000007
D3192E0CFD000BC1
027147EC405A00FE
2457D0023745E32D
665CEF0C152A23FB
3FFDF80F20DC4A10
A8D30C27EBFDC12F
F1D59BDBDADADD00
D0D925FCFAA72A30
00000000000000FB
C9F8F22E1B1CCFC9
2719E7133E350233
2B18E046F5F03E0A
060C06040711FB05
E3330F13211EC308
BF60BAF9E52BFAF5
09140FED1AF01910
F9E5F0D2ECEF09E3
00000000000000F6
51061B15300C4036
FFFC07362EDB3424
E134FB1919FD2BF2
ECE728FFFF1DEEBD
CA4C301A0058D4E0
DED3D3DA07F2D2FF
2DE9DEFD0DDBE920
35F61201E9AE0AF7
00000000000000F2
1A1020070E172614
CAF0120204F41F05
13C74A05DAF727ED
04ABB4AADE12B7D4
CF1AE6C63CBBE4D9
F64A07272B04C143
9CC0B3CB010C4EDB
E1DD45EB0E0440A0
0000000000000010
EC26CFFDE71B12D9
EBD4CF17E7A91D0A
16E9B5F5EDD8E2EF
F1E9EADCD1CFE809
34FEE3F0EDA8B0E4
11293FCD1AEF13C9
D6D60EDFDC0D1700
1707DCA018363008
00000000000000E6
060C01E2DE3B1B14
CCD7E609053CEA54
C0DDDBD5EDD400C4
EFC8EEEC0AFDDFD9
25FFD60DEAD5D5ED
ED2A13C6221ED511
2FFE3F2AB3E8F69D
2CB54337F201F125
00000000000000EE
08F441F6F2E3EACB
3D3F270808C119F7
503AE1211F33E9F5
E9F129E7E0091816
DA3811242205D522
E41A3535ECFD4F54
26C4D52529BAD030
DCED25E6E830B1F1
00000000000000FF
3F302EECAD1951CD
E7343DF9FE2B8B17
E5D91116B3E80408
DA17E828161555F8
F981F011F7D1E228
E9FEADD4D9C8C8FF
D50626492FA7BDE0
E9C2E6C80B039BEE
0000000000000092
FCC7A9F0B9C70E34
4B2547CCF4E50BDC
210AF902F72D0DED
11FAF75FD4CF2825
36D7F91FB27A03CF
1AC9EB2FFBFA59E0
F91C11B00EE51804
C60F98102EC3FD0E
0000000000000017
2DDD7EE432CA0D0A
103034F2EBF415E0
DD3529FE0925E602
E03BD4FD15D5FDD5
C314EFEF58492C0F
ED0CF147EC16D1FD
9FEE37B0FEE4C7F2
AB087F0611D3ED29
000000000000005C
12E945D436EDEE0D
2A261D0BD8C02600
19142336391C0C0D
202F2B2221271D21
F01123F1122EDB1D
1E4E52CFDAFCF601
05091BEE101133FA
CF0FD4CCCF0DD6FA
0000000000000000
F8F2CFB7E6F42B27
F8082904EB2DC311
E2DF290A130A0817
4AF909E12EF2E543
D0DB21E21B83E002
1D32F1F740E6ED15
F7E1DCDCBB56DEE1
7FCC15ACC42246F8
0000000000000084
3D413B2306260306
00E63528FBCA2137
F84439C9EE0C0D43
1F284AD41BC49936
0818F640C1152BEA
13DACD1E063401CF
2CBC1AB912652863
2DF1CA17D6C362E2
0000000000000012
061AFAE5C5C53401
CBD5DEEA040DF927
E9EFF00FD2FADDF4
A724D6E0D9C59AAC
0EFFE1D3DE14F0D3
1B1B01F516FCDDD0
D4D72EDA09D232D5
FEDDC4D60EACB71F
00000000000000E5
34F7DAF8D816E6E8
51745EEEDBDE07EB
0825E73703013619
4A400A3E31000616
2B35EE4B081C2D2B
C9D415B42BFA4E52
1F09FCFBD3010219
FE11ECE2FC0F495D
0000000000000032
14D616EBD0CF05E2
C2A8E5A8E9CDD6F8
CCF4BAB0C4BB98B7
CDBAE510CDF396AB
24FEA8FFB7FEFDBE
2721E50622FCF7E5
1D0C2639F41C1BDC
1FF0FCFD25F8051B
0000000000000002
0DDA0CF1FFD1140C
200E00A9BCD48D8A
16FD250CE4B1FF08
3019C4FE05BF6951
19CBE2D7D3190EEC
1AFCDCBC0FD1DD09
FB132E95314117D7
DFC5EEF90EC92104
00000000000000DB
B6180E2A6234D142
3CF71C0B37F348E6
71FB5E1B21155413
50173FB30F0DF8F0
0E35F4070FCA4A32
0D17F4F6C8D2E7C5
39D129DA1B002408
A8EB12B90A3A7CCD
00000000000000F3
26BE390E1BD2F0D5
1D05D6D781D4E9EF
ABD72C97D12D0D22
4E1FBB05DE270CFE
DBB23AF8E70D3B3C
15E5F85A4E48EF0C
A213FD23F10A9A07
0909BAF42A42F3EA
0000000000000025
26FBE3464230FC07
DF10180C2C0F5847
E93B04EA3D20E9EA
CFEA43E332AAC71E
2049FA0ED215FC00
05CFDC1EADCDD916
73EB00C0E70C333E
14FFC9E2200ACD07
00000000000000E4
0027061C01242C24
E1E5C9102B292EF1
24EBD203110EC0EE
ECA21820DD05EE19
CD12F523F00AD9FE
A0FEF006DCE2F601
0F17A209E207F40A
E54EF320EBECEFFE
0000000000000028
B4E4C5EA03F3CDD4
DD6F43F8FA4BEF02
D4DF466FF7DE3E1F
06F1ED150304353C
722B23CE021BD937
5A6E2B0609F50751
EDEC1134FE28CF32
12B90E51BF1FA8C5
000000000000003A
06E5EDE504D7DDE7
41183212D6E6E6E1
0F395C2A24242C23
1F261E23EB47051C
CB451AD33D5E18FD
7F2719D3DF0425D7
0EEDDD25EFAEF602
37360F08BFF86F1F
000000000000001E
1EEDB3EFCBDE06D9
E2ACC2D7B79DD1A7
E6BBBE15E907F70B
D801D70DDEFF1AC9
CEF41021F6C7DBD7
C92A09200913FC00
0615D6EB26E93300
510A43DFED36FE14
0000000000000031
25150736EF5B2114
C8A81F0CB7390B0F
F0CAF1E9D8F37F33
3B2BF25719B7E517
19A728EC345A324B
D33DDECA1DFBC3DD
D806D80E9EE6E7B8
EF1A462146429ED6
00000000000000E1
1224F1EBBDD31422
CB1810FB151CAAFC
45A1DD2BCB89B4F9
D415FBEAC6D523C3
BCEDFCF9A501BBF9
39CEE0A6CB20C21F
B7EFBB14211708E3
2126C62A0BFE1705
0000000000000001
143EF1F4BAFAFF06
1FECC7210CD6C416
CEC8E1E40902DDD6
D0A8EACDD5EAB3D2
FFE3CDFDD2BFAFFE
0F26262C02FA2618
27F5EA1D14141FDC
F0DF0BFFA61827FF
0000000000000013
2CA3B20EE4BBFE0B
234B3DB4F9DB06C2
1C09E4E233F61426
24AD21C010A20A1A
1A224A002EF60C14
0797FFBF08B9B921
60C646FB85C00EFB
471922E80DDBC99B
000000000000002D
F1E5CE23F0DFF1FC
371113F9104037F3
2AD83E1C1918FF1D
F9E13DD9F7050BF2
DF583712230F2830
EB151D01E9E3FEF3
5003E8E0D5E22114
0525F1010EFC08D6
0000000000000057
432F412011011653
F41AFF194313472E
5102F8141B1F1F31
3B2331E01138F0DF
D21E160B103B1C29
C2D8D321CC3EFAEC
D7F2BFEAF3EFF53C
E016C92ADB0558DE
0000000000000004
F8EEE818F81F0A3E
511E2721E3092AE9
18165322431E3E0E
3934C34B1A223813
E40C0D222E05241B
CCD60FDBB74BDBFC
B8E614DEC4BED3F9
B1F6CDEDFF0E15FD
0000000000000025
CDEE240C275EFD22
360C21FCE6053EF2
17E11B2AC7E3E8FB
E2D295BD06F3F5DA
222620D3584BFF1E
023DC9E31B1D25CB
CFE715C14FD31ED0
42AC002F03E0DD13
00000000000000FB
1DDDE1E005024721
F60BEA1A17111849
C463E5B4E0E6CDC5
B558FDB2D923ECEC
05DEDED7D65EDEEE
E6D7E4F6FDF0FA19
07F3B43404500C04
F135EB319A0ED727
0000000000000009
17D9E4103DFCE915
1D101FE8E5F733FA
0B11E4EC28DA4409
0029054630194413
C82EFD303461561F
05EA16E526EA0407
2E10ECF7E0D14210
CE10FE1314EAC109
00000000000000E6
2F0E0DF2DB5A1EFC
F9212216220D0420
DAED3F1C050AC33E
00BEF22115E30408
11D601F2D328131A
3814D9E60CD9CBE7
CE0105D1CCF19CE8
ECACEBF7ADE8CA07
00000000000000D1
DF2404BBE4D620E7
CC25B5DFF50ED400
FB03ED23C1F7211A
1D1BAC368185F941
C5F80CD706EFD6ED
E935B34EFA3DF521
D9048DC83239283D
DEEA24352F1211D5
00000000000000E3
ECD8B2AFF4CDF90F
F806EDA1CFE8DCCC
E503C9F0CAF2DE30
DCF5F9DDDC0BD908
23B9EDC800880E03
EA10F90DFB22261B
20181801052F151C
DBAB2203191924FB
00000000000000BF
F808E90BFE2EF8E4
54F0111AE433EF42
3DDB183817304602
2406FFF62BF94F10
F9FDFB21246BE40E
1CF9FC38E636E9CD
BCFECA05F5D4FFE6
F8CF1669D830DF15
00000000000000D2
201B81F6B71BEEA8
332E161C17B0F7F7
F4ED0FAAE0B80EF5
0A29CDEAEBE4B6C4
2BDACCF8E0E3143C
30F4E3912D9E500B
CC091D14A5BEC3F2
E1E4EE9F4957343E
00000000000000E1
20DFF0073A26F331
522EF2F2FDC038FA
0031D42D1B44CBD9
37E9D10AF83877E7
C734100EFAF7B213
CAF01764B9E60445
2541C223415D340C
E90A02F5E77FFF09
00000000000000E7
4CF2D7F6B730FF21
35B3E0342D53111B
2C0D29F2E0A71CAA
D522F3E3E5B3AF81
ECE5BAD1CEB817A0
CC0617F9301C16DF
00D70EFCA8BEE5ED
C30043B206F23709
0000000000000021
DECCEFF849F1DEFA
032742DCE7CD0CDE
420D5B663E0B5047
F60B4020556D2018
F52FF061225301F0
DB2E500CF02C112D
7726E75203230D42
F821222810F7FF73
00000000000000F1
09E942344B26EB04
1E283F1CD5B64CE7
66171E49E35AE9FF
E20F2B1228E442D4
FE3D2B1D522B03F9
D2FEDF36CEF9D427
1933033AE8F2171D
02053A06C8FB04EF
00000000000000F5
0CF6FE2045E4222E
FDB8D705B5FB17E8
57EA1C451610EB43
E9AB3440395F43EF
D9FDE6530402E1F9
07E50EC8CA2AC3C5
3120D4371A194B0C
CF5BE834391902D9
000000000000006D
000A0CDBEF1BF547
C974E241F03E2033
0722B54614EFE61D
2B590CEDC92239E2
B6031EF092C1DDDC
FEDAF03AB629ED38
2DFCC636421D14FE
272BB41DAED44049
0000000000000050
CF0026D5D3051C17
C5C8EB09E1DDEB11
E8E3FDBDD2CED5C7
BDB3DEDFCDFDD2BA
22FBC9C9C1EB1AE0
33FD06FD2028E6DF
D420DD10210AEBDA
2B0AF8EF293D0508
00000000000000EB
D021EBA615DDF33C
D5B8E9D93A2F0CDC
26FFCC01E8F1E504
D3C80AD9CBD8A1FE
3451DDD5C2EAC9DD
A517FB32E10916E7
323636370E572D09
C4E91F51F0FF370D
0000000000000006
350B0A442A0400F2
183B4615FD141E21
1F263CF43A0D4835
111D42342C485101
F7160B5AE2233F15
D3FB38E9E417E42C
ECFADAF912E1351C
EE0ED0C5E5EE01DE
0000000000000029
DE01CEB300B3EBD4
1AECE7E9FED4F6E0
34DE073C14162B13
E302DAC1036ECE14
2C2F0BED45930703
281D202AF927FB13
FA0C0E36294349F9
19EB2B1B1D02DB1B
000000000000001A
3B13F5D1ECF945DA
F2E0E6EC04E4DEBA
DDD8DCF7ECF8E9E8
CDF9DEFEF9D3EBD1
0AF5E2E9E9B8CEE1
2340152B21256061
D64336FFCA56CFCF
F62F20CB1CDF2E05
0000000000000008
140C31D0F02413D1
B5E0D8E401A6EDF7
BE0BE2E31ACF381A
DCBEC9E3FF06B6D2
2115EBEFDAD3F8EA
14E02E1C1621D52E
C54155040BF50F19
543F132E1E3C54D1
0000000000000040
F73D45E8EB301223
38F7050E1C3B031D
4102564E2F3F342A
F66E10FB11EEF6E3
D9F329E81A202314
FC430AF8E3D5EFCB
F7F72702D1DAFA1D
55E51EF818CBE1F9
00000000000000C2
53D315175029FD1A
340A2A250BC937EE
39246B3029EBDF1F
DD513FE524E2CD1D
E70C544B45E6DB0C
06EDD2E91330EADB
EAECF2B9CC5522CB
50203E03CCBFE62F
000000000000002B
1F374B0AFF3013D5
F7A3D9FB3434DEEB
1FF116B7F3DCC7DC
069EE4E9DAEFA001
E911D7B8E0EF0CFB
20AE430F8E20DCDF
20DDF72BF11EFA02
210DE12ADA1859FA
00000000000000E9
3104040CF92B00E6
CEEFDC05E1DAF801
BBEFB60500C5D2E5
00DFFBD2CFB911F5
2CE3C02606D4CCED
CB332AB102E6FF53
F4F51EE23E3AA8C0
0A2D362149DD2C23
000000000000000D
EED205383028E2F3
E0D6FB40DEE016EE
0C12D0FAE101D213
260015FFEBF3FDDF
250DD944DA3BF1EF
FF17D812A84F4402
4EFB06D22BC0485A
E14CF26C44352653
000000000000003F
2143E72F2B54D7B7
35DEB00C324B2332
3315DE330CF93847
E9BD1050EA622021
D5F805332CF71D09
C7F4FDE2052E17F8
D80EA731103DF5D2
F5FCD4F3D303A7EA
00000000000000F5
16D9D91B2D090A56
F10E21FBEBD31611
3524D5FD09F51814
3211D91FC5E65858
FCE23AFC2CF62119
FDC6D304C656D710
D6F9A04857391FE9
39CA0B37ECA322E0
00000000000000FE
F61748D710DB02F4
151109C4D9EFFC0F
F9EC0A4A32354106
2FD3E234211C3F28
18F33AAC23F4C028
DE0BDF1052F6BAD6
B8E953D3DD2EEA96
148F0E0BBCFBE0E2
00000000000000CD
35D7FDE6C4A81727
28BFFAB5D0D0E2B6
C3DA180B1EFB2CF4
22A0D7192B4C5501
CAF1DD2619DD2516
E2CA1BCC7C320096
9BF5D95430ECF19D
FA1303A1D9270D98
00000000000000FB
24CEFBF728AB09D4
32DC03A9C1B823C6
F627EDDB2456D54A
3EF0024EF933CCE7
17FF1F3E4E2C1CFF
DE0B2552F4350CFB
EC28C8FAE9D024DD
2F2C20F1D9FA350C
00000000000000D9
26363B1B100B0828
01D0DD0F290EDC3E
50C310ECB7C6DB05
CEB7D9C4CE081CD7
F3D30E040F1A14D4
4E0B0D910DFE170A
A7ECC20EC80425FF
5F08190A16D3CFAC
000000000000001A
1ECF87EC26C42624
FB060D1CDFF84417
F2C7F4F7030C4D0F
D8CF223A13F34056
EBAC2F38FC030D03
ACA0D2F92CCE94D9
36FD27CCD738E9FA
EDF4CCDD04BEE027
00000000000000AA
DDEDB4E018F3DCF4
C92CC3F90EE9FA2C
3AD7D1502B001827
012EE5DCEDF30A4E
9F2656CBFCFEFC1D
F937ECD4484F2417
C9FECFDDE7344B3C
3508A33B2C620E0F
0000000000000033
1C530E3C512B2CE4
EFF3DE03273E072D
E215E7F0FCE909FE
04F20100E808F804
C00D0418EEF7FBF7
0AD5DBD9EADEE7DF
1BF8EDF7FEF5EA0E
3B3CF0E9FFF5DCDE
000000000000001D
0E153B12F656FF32
FA1326E1D1BC18E5
0D06181A1C131316
0E041E1519202310
FE221B3A1B100D1C
AAD00A26CBD1AB01
ED020FFAEDCFEECC
EEEF1FDE01DFC9C3
000000000000000A
0B2FE6B4B8141B08
2B4D07E62806FAF3
06F0F2B5145BA43A
EEFCF24E0AF0FE24
16E5D8F418C7B4CD
08D8F75418411241
E121E15A12050B0C
C7180607BFABF002
00000000000000DD
F822F2D5CD1C2D25
2B95BE211D21EE1B
B4EBFECFD9E6E905
C9E4CBCFD90C1DD8
BB03CAF2D8AFC4EC
F8D3D103011CE7D1
BFDBF8F9D1A2FE0B
D8D3E030E21D3A15
00000000000000E6
3D3C0F37624B5F41
07F3ED2733546342
4CFDF417EB0318F2
1E0D2406151C08F0
E20919460AF749FA
E9E2E9F207EBEAEA
E3F5ECF0E4F204F3
F80DEBEB03E1DCF3
00000000000000D1
FDD2322B2AF2E609
340A4EE6DE153308
12FD49F32E1D240B
5C20D479F7FD282A
341D1DD948307222
C8F30A0B19DE58E9
DC4DE6DD070DDDE9
002333F054F030B9
0000000000000023
2DE901EC2EECEF62
194C02FB323E2946
2113F70E1F2B0811
283D20290FF73CF9
DF1BF2FE4531C31B
E8976DD80715F425
1623ACBBC9E8EFF8
B107221AA9D5C913
00000000000000EB
00DAFEF7FF0D1936
FE1D523EE5B516E9
AF24FB04271AFD07
5A143D3B1F5BBB00
FC55112217FCF6FC
1D411300ECD9D542
1BF5F7FAC3D7CA18
29DEFBD3D71E2515
000000000000000F
E6E1CC12E91FF85F
F2F16403FA210A0C
18FD2948FE37E3F8
F0341DF9CAF2071E
451AF03A23EED33A
E04BD2FEE9DFF2E1
0CC7A524FDB8D1D7
211F2CF50317B94E
00000000000000E1
DC2F37E0EF100EE4
586F57554D7F0E4A
054C1B2C2F0522ED
30102667EB09751F
CF1B1F3F55FEF428
C0D8D93CF6F4227F
3C21E8DA46E1EEE0
1FD23C23DF29F7CF
00000000000000D7
51F03E1004FDD8EF
FE20C5CF070BC0EA
F5C01056CE1716F3
EBC7C539C1063AC5
FFBFDC02C1D64F07
0647231F43302801
F44AE3CDE5041DDB
E1D60E4048352A10
0000000000000012
02ECC414E2DB16D4
0BEEDEDC09DCE8CF
EB190DC9FD2993A3
CECA2CEB27DB321D
FD19DF211BEC0CFF
00EF0A0BC0A20F20
61100A076609C63E
02F820DF21219029
00000000000000DD
EBB4BCC0C99A09D6
FE0D0B81E5BCDBD9
12D7D5E531D21927
0E1B09EBBAFEEBDF
11CBF5D7CABBA2F3
1BE52B14EB0D110A
03F80C1D04EB09E0
1907DCFEFA0F06F8
0000000000000008
FC0D27D20B0C01FA
F3E49BCBF1D2D1F5
00F00BC5C9EA0CEA
B6CDE6D9CFDFB80B
C6E4E2EB9FECD6C8
35D42523502A2EC9
29FFF424FA303A0C
38E5DD2803F74B38
00000000000000CD
0CDE13F70DCB04BE
A030ADE2DCE2DBED
EFE21803C68130A8
983FCFEBF2461001
CFD8D5DA21BC4423
BFF8DC16F4D9F10E
C4D320273856EDC0
CE0227E24C34ED37
00000000000000E5
E7EFCF3B271CCD22
3D2BDC26ED0B0FF0
551D1A0E0009B70F
1D5D2DE915E64A25
B11D2028344A1703
30E4FE00ACD6E0F3
171671FC32DD162E
3A17EED37FADC622
00000000000000F5
B821EEDED3F2D7E8
C82CBB221CBFEA01
85A21BC91D30EEE8
C685D7FCDA2403E7
941512ACEF36211C
2BFFE414CFD50830
C325F32D2BDE2B14
E9E126421468140E
000000000000003F
4AE81B3F2B0EED4D
65DEEF10BDD1EF17
CF22F0EBC5FB08D6
FD68CDD12554340F
05F02961E951F9DC
04311A37C7D058B5
0BD6183622CCC8F3
4945032DFCC19B2B
0000000000000004
33D5483F1AD2F6FE
07E1CD11BAC4EDBD
3A27030700132CBC
C9B21223E6014307
13200D7FF513FFC9
DFF0E224FCE940EF
082702D936F8273F
2E26153018A4ECD1
0000000000000038
B9A8D9E5BBEFCBC9
D1ED09D28DA8D4ED
2BD4F3F5F7C804A5
E70FDD98F0BB2BB9
08DFD8EEEA3324DC
2A141F0122F71508
33F2581B1203012B
17E3F2262F11352F
0000000000000016
EB37D5E9E428DEF4
E5F125DFD4419711
A9A21CE3DDD1BEC2
CFE0C80015EF3C2B
FCC9EEFAFEEACBFC
0A1F26F40D292408
1C1904201B32150A
01F70F0E02231C2E
00000000000000FD
F9EDF4430A14D0E5
5C5A6608005C0501
04FA4303043B1640
522DFD283C305029
0C09FE0E02111B44
FAF5D617CF1D0128
F7F1D9F3FBE9E821
15D2E90901BDF9EC
0000000000000006
B912050717010E4C
231B23E8F0EE1DEA
E805083E2F380A1A
470B131436422406
AF30241131FD6117
0BFF15F9E4EAD80C
DED918FADFBDE702
47DDDEBA31F4CAD7
000000000000001C
D5FDDB97F7B01308
44F8F0EC0BF1CDC6
053C1AD22AC72023
D80910F5B3E8B3F2
07D0CCA8CA23B2D8
28061FE150254DF9
353423F20D283826
B50DF645E0F0C119
00000000000000FA
EAD142D3F6F7050D
E915D7F7CAFDCD1F
B335E661121005F1
860BCFF8D05727EF
1AC318BCDCEDD707
33EE15F81B26BD18
F71106EC172A0433
16F4DE331509AB38
00000000000000BE
1132EDD9CF013110
3D062E0DF300090F
86DA30F11E3649C9
BFD305E20695E2BB
12F3FAF4B5EB3204
3D15322F3F175414
2509E5BAD0063207
5EECCAD30BE4C6D0
00000000000000E9
321B15D991EDFE11
EBDB24E60E1BC51A
B2C4F29DDAD7C8BF
BCC3D9A3FBB4F2E4
2ADEF800D0CDECEF
2114FF02200F29F6
1ED10BA3EF1AD12C
2F120FCC0E1606F5
0000000000000005
FB6AEAFFF9043A21
E84C1A215F6E3023
DBEE3DDFEC3FC22F
4E2207EA49142B38
FD04352E0B580A25
EE290845A100C8FE
F6F92EC508E60901
DBDBEA15D1D9F0B8
00000000000000E4
F111F92B3A12BFCC
EFCC0B25F9CC09DD
047FF4C4CC23E0F6
D541443B1DF6B959
37F33F380703FE2F
1814EE26FAFB22FE
273641EFB11B3C52
6B0203D53E32AE5F
00000000000000E0
F115321ED3BB08F0
FACDFC11F4FCCFD7
F5F3E9AAD2BDA5EE
0799F7E7EAFEC0CC
31BECFF7A4C6B905
CF94A7F711FA27D8
400DE91E07ECB925
FE04A6ED1F32EFF6
00000000000000D8
2EE70A1910D4F501
27E20D0DF6D53DE4
4D49FEEF2129F0F9
F7EAED1BDC48D5D8
3073EC36521234CF
F8051C50D5213F23
1736E51AEEFC4C49
DC59545C090CE6EA
0000000000000059
E3E21AECFDED11F7
0DC7C6DEF2B0BBA9
F1D4EF0E08FCBEC0
D01EDFCBE0B2300D
0A14DBD0D839BD03
2126F8B908244CFC
E509EDE24C471909
F3DDDD39181ACE15
0000000000000011
07FEBF2850F8CEE3
F6DAEBFCFDF95DDD
3FE969CB7F1A3231
34C132ED50F01C05
11553B090851E97F
F3C7F3EC24FE14E8
16ED67F8ED23FDF3
F0E20734112604EE
000000000000004B
E8F4EEA001041217
08EB15B7EBF3DA07
E8D018F1C0E3E2E5
E700D1D10FFF061A
0BCAF2CC00EA9F20
1612EFD4150D1EDB
0C1144E91F1ABBE1
15D00EDF0A4213E9
00000000000000E3
0733211A133B2FEB
E6F3F83B1A343640
E8E8F4E10C0803E3
0ED6000101E2E6D0
FB77F54EF606F5F2
EDEC16ED111CFAEE
19ED0FCBECC11606
0E69F30128F10AF9
0000000000000038
8F2A03ED060B0004
E9F9DAE726C912F3
EAD7EBD8EC4DCACC
AA39BFC7EDDC2DA3
1ED8CFEA0E3EC12D
BB23232106D5B626
D0CCFAD40D170691
F8BDF3FBFA451547
00000000000000C9
3B2402ECD2071705
FDE001160210EF0D
FFF8F5F705B7DECA
D91311F210F7DDDA
20B5BDFAD9C4FDFC
3C2F251F13B80F03
E517300DFEF0D0F4
D6E737F62D3011FB
00000000000000CF
EFBAFEF7EFD5FF00
0C0F13AFF30BE5B0
14D32C12FF0712FD
13F6D1F012141D1A
2CD104B013EF4113
FE07CFF9EBF3CAE2
BF08F7CB3F03CFCC
AFDE04C035F62309
00000000000000AF
090C328281C7301E
1AF400EBEFFFDB2A
CDF70F0307F3DDDC
09CFD9FBF2FF2200
0EE9F193FA23FC0A
F4541DE511EC2D0B
D306FE3041F5DDE0
ACE1D50E010639D6
000000000000002D
CFE2521E4DF10D1C
2335214AF4162113
0933E419E63C1126
301935F5033A3274
022B0239FA0D1325
DBEE2F200AD5D818
ECFAF929DE55E31C
E3F9D301C7D5CFE1
00000000000000F9
C08116B7A3BBF2F3
1EF514BAED03B4C0
2FDF14061BF40D0B
36070A0BF2D6F6ED
1C010FE42BDE8F11
150BF2D722E0150B
1402E81911B718EF
161328ADA51130AA
00000000000000B9
0121E81CE012F5BF
EEE3F8FA1F10FE4D
A10A08D310170D9E
0A2CD72120F9D8B7
20BD02A6D4DAFBEC
2D1E0FF731B7F9FB
B71E2DD7E4068101
14BFD2DA2AD906C8
00000000000000DE
1AFD1E3E2116E636
DFCF583F2D402953
DA3F56F40508DE20
1B2F285333032A46
1B190120640111F2
E5D7EC0FAEDDB6DE
2B01CED4E7E8D412
CFF505D8CBC7DF1A
0000000000000011
D5F8F6DA00D7EDFD
DA0605D8C99FCD83
8CEC0628FA0E3BD4
1812D83811243B13
1A1E2FEDF7FDDE12
3D1F062130E1CDF6
EFDF0ED3F2080AD9
4CA0F4E0F2ED173A
00000000000000CC
0BCBDFF00FDD04D6
FFEEF699BCB4EE8C
ABF7F0FED6E8C4F5
C9E3CA83320ADE19
0BF6B0D59602EFF7
422EEDFB1B18162B
F2F03121302B1C01
96C1D01619F91BEE
00000000000000FD
0F21F0302D78F007
0AF104280C5A0630
232F090E19DCE61D
EF5C16D916E44D23
DADC090210571E0C
D4ED1FC5F210E0DE
00EDDBD5153ECC17
EFDAE924FFF10CE8
0000000000000019
1030211C091EFEBF
7F194FF3F81625EC
55FABF400000ED5C
7A6F023E072B182A
EAF1342E1F0B100B
F3EFC703A4EF43C4
B4041CF7E2CA00E1
FD2F3D453DB837DE
0000000000000059
32F586DCEADA2915
C026B6C6D035E4EE
E1BD250E03F6DEFD
C1F5FDE0D9CFDF27
1FF7BC02EDC20C2A
442512FA8C1FAF16
3E071ED63E05B3C2
11BD31EB1F4CAC10
00000000000000C1
0AF00F140D1BCFDC
124DCD1213F53529
0E1AC5241A5A1133
281F260A091230E8
05340C56430AB3E5
EC15D4190EDAE946
1D11D2D50BD6402A
D1EA1ED99A9E1B20
00000000000000F0
0A5AF8DCA1FE39A5
EFB7EF0DE9C0B794
EAC402FEF02ACD07
22DDAF0507F81C02
D7BC1308240FB133
0209132AAB12FF07
D81DF41D2B0DE906
20E42210E94B37DC
0000000000000015
180104DBDBDA63CC
B623FA16EEFABEA3
26FA05E3FC114AFE
AFD339CED929C6C9
35F209FDCABF10EE
C20E2C296D4CDA2B
6DD548E5C1F33C13
75EFBBD822FDACBC
00000000000000DE
BAD1EE16EEFBD4B8
2CA52B0EC2A3FCE7
58F7C2E9CE0BE7D2
EC0A00ECDB67E4F2
3ACA811A01DCEAF7
13C9FA41602A1ADC
150DF9FAE4060F03
DFC5F7163B1B6109
00000000000000DC
CCDCFE3EF84ACF09
BEFDCB17392F1B5B
EAF0E0D2D300BADB
00DB270D19C2DAA5
CBF5D20DE9192311
451F2BF912291F07
473F1ADDE4853A30
C82A104A55FE25E1
000000000000003D
000E19ACED0D1DFB
0C2C382F2700C8E0
ECDFD2C801F039CF
04E9F32AF605F3F8
E4D3D705CCEE0B11
0EC628FC400E0922
222B432B1A0511E1
1BF5E8B621431435
00000000000000E7
E4EF282FF20FD411
1A13244AE52017FF
2D18FA1616342F01
16001D502431270F
CE0910070F16161A
DAEFEFF6D8FC17D8
2D34C7F9D3031314
D819ADCFF601C9CD
00000000000000DB
D51BFBB9C9183124
05EFA0BE0402D6FA
ABEAD9EEEF10F91B
DBF1CD30B110F122
B5DF2EBE2EA29E24
06AE08C63C2D17F3
1316A7CCA300A603
2DAD27BAAE03BF24
00000000000000CE
DE37FEF3074732FC
DDE1E4422EE7E701
E1E8EDEFF8E3E6F7
DC01F0DBF5DFDFE4
0214EDF2EED520F1
DDFA3BFB2806F7FA
F4F0410100D115D5
0802050E2D02E833
0000000000000013
3534E1E5D8EA02F6
F8F3D9FFF3C3E3DB
12E3AFEBF9CBDBC7
EEC60FD800C8E7E3
E9FCEEFEF3ECB9D2
07F4170AF5D11508
4F39060F214E420D
471A0D1535E64B36
00000000000000DA
F3BE21FE2CDDC913
1726170901AF10D3
2827191C24462A25
453F1E04192D2D3C
CA1BF711111A2324
3235EB16C8E591C4
37CCF3C23328F1D4
B73FD3F91AD9C7BE
00000000000000F4
F71C0E043E45FA0C
3AF15820470D1E0F
5A3AC6ED091D030C
EDDC140F0152326D
0FCB35363228420B
DBD3174CF5E74FDE
1CFDCBF53340090A
24FBFC754DD6B9D2
00000000000000D6
D6140ED8FF38190B
DC021728F2420416
A1D4CF23E1FFDA0E
220EB3F1492E0EC8
11E1DCDCD6C42D0E
1331AFF60F07E4F9
AA28F2FDFA34E8D7
B70DD80026DB3545
00000000000000F6
EFD7BDEC27F2E5F4
065D21E8E4D91DB8
453BEEF8380DAA1C
D40648E7E2291912
0F201F1A66EFCE25
AC166D29054E3E41
53C20C23EB03E6DE
22265AE0D70AB8D1
0000000000000017
1EEF3C2F32F4E8FB
0E42E20CC9B32DCC
61F7AC1627171F1F
45BD304BD9DB2B3A
E620052D0C1A1F21
E9D73F0EE0D70CF5
2BF1ABDF1F324D03
FF241CF8EC4BD708
0000000000000004
0520AAF709E8FE08
114A45D6FE053BF6
F912F13447154740
6C56382E3E35E119
FA18201B06C7010D
E0F63ED6F834C1ED
26D3ED45F4C903D9
F320E8B9E6F70803
00000000000000FA
182C00E5FB141721
0AB3B0E4F2F4E11A
A1EBB3B9BBE6CACB
C95ADECEE41B1DF6
DFE5E4FBF1FAE8C8
2418E610271B2DD8
CD24122F4418F7B9
17E826EA23C8241F
00000000000000C9
0EDBD065460BDF10
29182706E8DC2FFD
3F07EBEBEB13E9E6
3A362831E6251E1B
F706D8310059F5F1
C9C0D9C7EEDAEAF4
FD19EAC9E626E005
DE2DDF0A39E5F6F3
000000000000000C
21260BCBFE241105
E1CEC73B1118DE2A
E7ADD501FC11FECF
BA950306D2C21EEC
11E1E416E8CBDBEE
FF09384CF80EDB01
FE241A031B25B5BF
E72D2D2A31C5F110
000000000000001A
1DB5232A1EC41D39
114E2CD5E6C114ED
E73624E322F9FEF6
B73038F621ECF1AE
FA3C2B1F114024F1
F4CD18ECD613ED2E
45EE17CECECCE614
53EEEDDF33AA93E7
000000000000001B
2F0BCD2911DBFDE5
51501AF9DE1A08D5
564D0408440C1F3F
655FFE5D3D2C4322
EC023EFD131F2B32
FBD648E90B243120
DBF0E3DD17E4F0FA
0FFCECF1D6C5240B
00000000000000E8
0620122C0955E4C6
E4FD3BEB0BE4FFCF
E21157F6D320E9D5
A8F30D24FDCD44A5
34291A50E45FEE11
E3F80509D5FC3D0C
FA0CDBEA1C9DFA31
1A022E57AA09B2CD
0000000000000045
FE0FD8232F4DE0E9
D755FBDDEDF6152C
4B401C3423E346CC
68121C6205C10D0A
C90AFE27EA3F61E2
FF031EF9CAC03CF9
1C63E32D482C3454
CE24E747203B78F6
000000000000003C
EDE5F6FD02F7E306
0A530705120641DB
3533E8420A1F371C
2912421EE2FA32EE
3F4F12F2364FC311
E64834B022F30405
37DAF4F1FAC730E3
B70203EED5E3D8EB
00000000000000E5
0E30090F01100E12
ECD3390F1E2D2000
F9EEAC25C9D9F017
CAB938DEDBAC2B08
1CC8C71FFFC2B624
D415CDD1F239E10C
6BD20CFBE40420B1
B6DBC3C6BA0AFDCB
0000000000000033
CAE9CA202EDCC008
0017A3F5104CEAF8
C7E54F1A29023EF3
E5031C4C372C4148
B03FE14618252FE7
471BE41049D3EA1D
12216805F61DF6D0
103D27EC21B1D6CF
000000000000006B
E01C580303DEBD03
09E9E8C915B4ECCB
F5F118181521EECC
0109340943EDAFD8
BF53192011E90708
436849E807CD6BFB
1037FEF8D8D936E1
4F19F9DED1FF54CA
000000000000000F
213E46D7C51E032E
8522BA0C2F41EA1A
B3F0EC370BD7FBD9
BDAD031EC8F696F9
B715F9B0E5E0E6C6
063FF41399F1EE32
DE1FA119AF13F846
39EDDB2448EB26F3
000000000000001B
354319EB1A271327
D1D0CD2E3D361A44
32EFEBC8D4070EFD
F3AE17E21DE9CEE6
D3D5FBF4E8E0FAD5
CFE7010C21D1FEFE
E5FB102DE61CFCC5
142D0CE3CBFDFBE2
00000000000000DB
F41CFB1502FD2389
F7B0D923E4F2FFEC
44F2CDFD0D33D2D6
2BBD350918F3E1E9
2825DB41C051A7FF
D708994F1EE694CB
D21F22D5A6E4EF0C
F45FD2E8EB0F3FF5
00000000000000CC
F94A0732D1E9F32C
B0860FF8333A0CF8
AEE7E1E111C90303
1114D5DDEA173E98
32E5F5B4B0F31F1B
2DECC081021B81A4
B2E0DCF42CB9D2DB
1F19CAED3C3B3C22
000000000000002C
06FA15210B070424
37FC2E1529172123
2530E1FE0C4FC3CE
150F39FFDEDDECFC
FB28150940EB2D03
F810DF43F4A6E0E7
2CF301C7C3CE061C
0D2809EFCCBBF205
00000000000000FF
29D500FF55E1DB4B
5317A106E5BF4CEA
43F2E520341B2FF5
3431F20402F01D1D
CE4B720D6633CF4E
D7F6E54337CD5A16
321CF5E3D74AFA1E
264EFA58B3F8AFE0
000000000000004C
1F232817F22B1432
2DE25C2AEB9C0D1D
B52BB9F31703D8D9
1EF6FC262A215C10
E422CE16D315362E
C6BEF7E5A2E114C7
010355FDDE03C1D0
B9F0D005E30ADB39
0000000000000054
0850440DF437F52F
14290D3F3FF42B5C
B864D6DDFEE2CD10
FFEC062DEE1128C8
E246D6291DDB03ED
E8F6FA2F041B4627
4B23F0F405C9ED2B
B20734FFFBF306D7
000000000000007D
27D2F20DE837FFEC
0D18CB06BD1022F0
011103E1CA08D83C
AB50072E3426050A
DAAA3D2405D50C32
2320D61A35F70718
4EE905352BD2080B
0E3B4FBAE148E5F4
00000000000000BE
14D9F817FBF4D0EA
273343E6D2E010E3
EB48431415252C11
2479254C17213027
DAF614E9273B3823
BFEDECD2E9DED3FE
08031B11D0F1E31E
E5150324FED8E215
00000000000000EB
2D1CD63C3E32D211
1618140127211AFA
26D9D4390DDDEE0F
09E53047191D0C3E
D3142828FB05BA01
0C21D3BDDD2B06EB
FDF905E7DD24FEF4
1910F9E1D7E0B9D4
000000000000002E
CDB4D0CB99D6C1F9
F4191FEABFD3D3F3
15FB1132F9014118
0A240BFD28083A1C
260506D634DD3A08
1F28B507305AF102
2F043C2E62D20A07
03FD0D0314EF091A
000000000000000C
FDDB3A282401E100
F653E708DE09FAC3
7D2601F4C9A1F04B
4ED73810B157F912
C620D71DBD25D7D8
30D1C0C3205AC911
3B0EB84001063E68
BC3CB82CD3C7420B
00000000000000FE
E2C8EB11EFCAD7D0
091926BADFC2B39D
2325161DF8161C2C
0528154AFB50051B
FBD7F645EBE70E13
0E08FE15E01E1502
0018EF271BF83C08
2010F2F90F2211D6
00000000000000DC
FFA0EADFB9A0F0D1
F709D19FBBC2B7E9
08F30FFC0705FD0E
F820F70701F60502
15D1FE0BFBD1D8E0
15180E1A2A130B14
F50B2119151204FF
19D613F408181412
00000000000000ED
17EFF9EDE2B5DBAC
F7D9C6E7A49DD4A8
E5E9FDD6F4EC00E3
D2F2DAF5C0D0FAE9
11BAE707CF0BB2DF
0F170715170A0F10
030F1410150B070C
06EF0F1B121A101A
00000000000000EB
FD0419482CE0F1DE
47D5E5F510154DFD
2610011A2C210732
CE153FE5F0C8AFD2
DD20D31E1A3C2C18
D7FC2CE6BA3B23D3
48D9DABAAA363713
E81943FB3402C815
000000000000001B
D63CF7E29730FFD7
FDAED42102080E38
E917D3D2F5E3CDD6
C9B7FCE4F5EDCDD0
0EB7BECCE0D8BBC6
2CD32C23BF071CEA
2F1EF50C0012E713
0F231E0209062B07
00000000000000F8
1BF0F7D3ECDAC1FB
DCEEE710DB0EC326
E200FACBCF0FEA18
1CDD1F2AF9563224
0DBB07F00C0CE410
04F5FCED62331AFB
150803E81D00F11B
1A103210C2144CDB
00000000000000B0
D155C31FEB16D5E3
DEB9020C442CFD29
CB2855CCF5B23F1E
D9185DD0E52D881A
3B1F0CC00FD10DC7
00EB0BBA58E9F2E3
60C5201FE21BDC57
280B04EC0EC3FF26
00000000000000EA
36622C36F825DDF9
E0E3CEF0381EF3F1
1B0AD5E7D1E9D2C5
E90919E2F4E620DC
06F80F5BF11EC6ED
1F27B1D028A348EF
C50C22C040DC3617
434A27232B11B138
0000000000000077
2D38DEF72A17022E
5A2B013D39621E44
53CCED2627490FE8
FF0F092DF8ED4C6A
C9E7F5FE3830D165
C854F002C7C72BB1
D22FCAE62D430AC3
BDDC3FE2BF5DC6EC
00000000000000E3
F2F9D4401F44A6C5
C9E4221EFBF8DE23
A22A06ACA2D4E302
1AAF14CCED280101
30C903DBD4DD2CE7
151706F2AD013226
38FC14181A39CB6D
3206F9FF2B275408
00000000000000D5
202C160A1626F857
0ECA1A10116A0846
7FBD11482C293430
44121D4B0C05063E
AF030343310A4972
EDFECAFC140CD5F1
0D1BD0C2F4201981
2A2AE2DE272AFD02
000000000000001C
220EFCF61A1B0414
ADE70C1A381F1F06
F3D4E5B2E1D915F4
E7D606B603C1F0BF
FEE2EFE4DCC298E4
14C3E1E81EFBAC03
33DE03EC230BFEE3
FA0211B3BFE51A16
0000000000000034
450745E1D81E0F20
D8E1ADD80A20031F
F309B7E3EDC4FB45
43EFDE17D801C4D7
D8F4D7DCE7BAEBD4
D74A33F64219CCED
123CF2F733C7E3CC
C534ECD0F2DF6123
00000000000000E3
2F2C30371D1007F2
1A1110E0350A300C
365354F612210427
EB7F4240ECC427D7
DC12DE212F2D30F6
1DE937F0E8EC02EB
12F8CCC409C45B0F
F60313F61ED5FD4F
0000000000000010
E925303AFE0FAED8
D4F6E6CCF4D2343E
F802F8C5EEC7AAEA
DFAAE9EBFAA8E3D2
37E02CC69FC30CD3
2FCC140EC8CBDD46
021C3AE2591E2A15
35D4F5DB1E1A310F
0000000000000007
155430CC034F1609
F4E5CF1B1F3BF365
32E6150EE4BDD4F5
E3C2D20FDA0C15C2
22C8B8DDE8FDB722
C52EDAE202D2190F
170104154ED6F3F1
8D14C106DD0F09C9
00000000000000DA
1C2D4518F7503F21
47C8E25539380D4A
FD381704FBFC473E
E8452D0E0DACB06A
C20BDE2F0F43222B
E6C514CBB52B27DC
35EAC3C7AADA0355
DEE22C180748F6E4
00000000000000FE
C621C4D1E52EDA51
D605FC141C0E2D0F
F09E072AE91ABF06
F9B707FF01E0C3EB
6DF5CDB115FBBE20
2914AA210FE7F5F9
2E082FCEEEABD8D3
D8F8DE42B64A11EB
00000000000000FC
E7DE2ED6FCB1F00A
E523A6DFFDEBDFDB
B3191EFD08F5E9AE
B4ECD022B90917F3
BCFA03E9F60ADC9B
6434E065FC072D47
C91DA33B46CB1313
623C3E022AEF3A40
00000000000000F3
08E6E91A1ACBCBDC
FECC9FDEFDC60B18
2811CDEED509D829
CE584B1218EBC721
A8AFE7450CDDF8E8
85471FF5DB3524EE
580E5608E0E50367
05F93A811DD91B47
00000000000000CB
CF264CEED9E5E9CE
050712E61602F604
23CC0E2DEAC326D4
AF41ECA31AECCC1A
2FCF1AF1F5F41626
2D35AAF544D60B18
D8BF1FF5BF3220BC
D9EAD0D8074B95F8
00000000000000D6
B9EBD70D1913C6E6
CA5328EFDAD955E8
59FDE004080C4F70
BB3313102C261C18
15EC4E101C1F45F0
BBDFDAF3E66BB746
05034B3924EFEA1E
37F523444454C948
00000000000000E7
29F1F314FEEFC94F
479B2F07E52BDFEE
070835321DB91BE1
EE0CF4E8171BCDF6
372B3738DFE91BD8
B167233FFBCD7CFE
46E8FCD2BDCC1C04
E9FDDF14DB13ACDF
000000000000002F
B220D211DDE6D4C7
D1F9F51F351CE105
4CF701B810A627E0
C4EA6FC911AB2426
27F8DAEA1113E609
12C533C84C1DAD0D
48BE46C83BF114F8
019C37FBDE201A96
00000000000000FB
F91418E1FD0E0907
C9F4A83622F40022
A53003CE49C7A0FA
EF2A2A2AECD0BE12
1ADB0794A2F5E0E1
240C25D7CFF1D812
D2335C02CF3AAC15
1812BAF9EDEE0723
000000000000002B
D10EE22F41EC040E
1B19D91641064E13
543345220FFA4A0E
FC2B38E1E4434108
E12E1D423FD11A1B
EB29B606D6D720CE
3FD0FAFBF40B2221
E00551DCF9E8D6D6
00000000000000F6
CAB5E6E5F5C5C9BC
F8D4E7E8B9B8F6BC
A124CEC72FE735D3
D619F7193EDEEBFF
21D0FAECD1DAF9F8
20F821F417FFF309
F50E2C14171BD10F
151D0C0A1907EE1B
0000000000000020
